TRT-100300-EntropyCalibration2
images: 3b66eddc
/model.0/conv/Conv_output_0: 3f0208a8
/model.0/act/Sigmoid_output_0: 3c010a14
/model.0/act/Mul_output_0: 3ea0dfeb
/model.1/conv/Conv_output_0: 3f4cdbd2
/model.1/act/Sigmoid_output_0: 3c010a14
/model.1/act/Mul_output_0: 3e949ee4
/model.2/cv1/conv/Conv_output_0: 3f1f8c76
/model.2/cv1/act/Sigmoid_output_0: 3c010a14
/model.2/cv1/act/Mul_output_0: 3dc21834
ONNXTRT_Broadcast_265_output: 3b810a14
/model.23/Add_3_output_0: 3e9f4871
/model.23/cv3.2/cv3.2.0/cv3.2.0.1/conv/Conv_output_0: 3d50c142
ONNXTRT_Broadcast_263_output: 3b810a14
/model.23/Split_1_output_1: 3e56eb83
/model.22/m.0/m/m.1/cv1/conv/Conv_output_0: 3d81f861
/model.2/Split_output_0: 3d684895
/model.23/cv4.2/cv4.2.0/act/Mul_output_0: 3ca42cd1
/model.23/Expand_1_output_0: 3f204a85
ONNXTRT_ShapeShuffle_260_output: 3c010a14
/model.2/Split_output_1: 3dc0881a
/model.2/m.0/cv1/conv/Conv_output_0: 3d8f77ed
/model.2/m.0/cv1/act/Sigmoid_output_0: 3c00f90f
/model.2/m.0/cv1/act/Mul_output_0: 3d1179af
/model.2/m.0/cv2/conv/Conv_output_0: 3db86cc9
/model.2/m.0/cv2/act/Sigmoid_output_0: 3c010a14
/model.2/m.0/cv2/act/Mul_output_0: 3d930cce
/model.2/m.0/Add_output_0: 3dd44d76
/model.2/Concat_output_0: 3dc21834
/model.2/cv2/conv/Conv_output_0: 3e0c292f
/model.2/cv2/act/Sigmoid_output_0: 3c00c991
/model.2/cv2/act/Mul_output_0: 3d108133
/model.3/conv/Conv_output_0: 3d3c6fb4
/model.3/act/Sigmoid_output_0: 3c0477a1
/model.3/act/Mul_output_0: 3ce9209b
/model.4/cv1/conv/Conv_output_0: 3d9fc797
/model.4/cv1/act/Sigmoid_output_0: 3bff01a9
/model.4/cv1/act/Mul_output_0: 3cff926f
/model.23/Reshape_19_output_0: 3e1d4449
/model.23/cv3.2/cv3.2.1/cv3.2.1.0/act/Sigmoid_output_0: 3c0171e5
/model.23/Add_8_output_0: 3e810a14
/model.23/cv3.2/cv3.2.0/cv3.2.0.0/conv/Conv_output_0: 3d7d79e3
/model.23/Add_6_output_0: 3e1d4449
/model.23/Reshape_2_output_0: 3c9e5e70
/model.4/Split_output_0: 3ce9b1b9
/model.23/cv2.1/cv2.1.1/conv/Conv_output_0: 3e6266f9
/model.22/cv2/conv/Conv_output_0: 3d8b3835
/model.23/cv3.2/cv3.2.0/cv3.2.0.0/act/Mul_output_0: 3d67e9c2
/model.4/Split_output_1: 3c98d197
/model.4/m.0/cv1/conv/Conv_output_0: 3d15f460
/model.4/m.0/cv1/act/Sigmoid_output_0: 3bf337a1
/model.4/m.0/cv1/act/Mul_output_0: 3c904458
/model.4/m.0/cv2/conv/Conv_output_0: 3d325d13
/model.4/m.0/cv2/act/Sigmoid_output_0: 3c006ac1
/model.4/m.0/cv2/act/Mul_output_0: 3d120e59
/model.4/m.0/Add_output_0: 3d23b332
/model.4/Concat_output_0: 3d1159a2
/model.4/cv2/conv/Conv_output_0: 3d3fc142
/model.4/cv2/act/Sigmoid_output_0: 3bfed076
/model.4/cv2/act/Mul_output_0: 3c74b185
/model.5/conv/Conv_output_0: 3d7e8792
/model.5/act/Sigmoid_output_0: 3c00b0ed
/model.5/act/Mul_output_0: 3cd2b230
/model.6/cv1/conv/Conv_output_0: 3d9ff9fe
/model.6/cv1/act/Sigmoid_output_0: 3c00f1c3
/model.6/cv1/act/Mul_output_0: 3ce70b71
ONNXTRT_ShapeShuffle_250_output: 3c010a14
/model.23/Range_2_output_0: 3e9d4449
/model.22/m.0/m/m.1/Add_output_0: 3d8deaed
/model.23/Concat_14_output_0: 3f204a85
/model.22/m.0/cv3/conv/Conv_output_0: 3da234c1
/model.23/cv3.2/cv3.2.2/Conv_output_0: 3e5b0ae0
/model.6/Split_output_0: 3d133abc
/model.23/Reshape_10_output_0: 3f204a85
/model.23/cv3.1/cv3.1.1/cv3.1.1.0/act/Sigmoid_output_0: 3c06cee9
/model.23/cv3.2/cv3.2.1/cv3.2.1.0/conv/Conv_output_0: 3da233dd
/model.6/Split_output_1: 3ce6c87e
/model.6/m.0/cv1/conv/Conv_output_0: 3d1ae2a7
/model.6/m.0/cv2/conv/Conv_output_0: 3d93cb03
/model.6/m.0/cv1/act/Sigmoid_output_0: 3c051a1f
/model.6/m.0/cv2/act/Sigmoid_output_0: 3c009b42
/model.6/m.0/cv1/act/Mul_output_0: 3cc190f8
/model.6/m.0/cv2/act/Mul_output_0: 3d001bf6
/model.6/m.0/m/m.0/cv1/conv/Conv_output_0: 3d80c6ec
/model.6/m.0/m/m.0/cv1/act/Sigmoid_output_0: 3c057d8d
/model.6/m.0/m/m.0/cv1/act/Mul_output_0: 3cb2ce49
/model.6/m.0/m/m.0/cv2/conv/Conv_output_0: 3d58d569
/model.6/m.0/m/m.0/cv2/act/Sigmoid_output_0: 3c031ddc
/model.6/m.0/m/m.0/cv2/act/Mul_output_0: 3c9b1d52
/model.6/m.0/m/m.0/Add_output_0: 3d502445
/model.6/m.0/m/m.1/cv1/conv/Conv_output_0: 3d4bfaf3
/model.6/m.0/m/m.1/cv1/act/Sigmoid_output_0: 3bff7f4e
/model.6/m.0/m/m.1/cv1/act/Mul_output_0: 3c522ebb
/model.6/m.0/m/m.1/cv2/conv/Conv_output_0: 3d7f5db1
/model.6/m.0/m/m.1/cv2/act/Sigmoid_output_0: 3c0101ab
/model.6/m.0/m/m.1/cv2/act/Mul_output_0: 3d3ff2c3
/model.6/m.0/m/m.1/Add_output_0: 3dc82abf
/model.6/m.0/Concat_output_0: 3d42af91
/model.6/m.0/cv3/conv/Conv_output_0: 3d616be3
/model.6/m.0/cv3/act/Sigmoid_output_0: 3c00b360
/model.6/m.0/cv3/act/Mul_output_0: 3cb154e7
/model.6/Concat_output_0: 3ce6c87e
/model.6/cv2/conv/Conv_output_0: 3d74dcaa
/model.6/cv2/act/Sigmoid_output_0: 3c0071b4
/model.6/cv2/act/Mul_output_0: 3ce5b02c
/model.7/conv/Conv_output_0: 3d8d8923
/model.7/act/Sigmoid_output_0: 3c00f7b3
/model.7/act/Mul_output_0: 3d25b958
/model.8/cv1/conv/Conv_output_0: 3de15b63
/model.8/cv1/act/Sigmoid_output_0: 3c010a03
/model.8/cv1/act/Mul_output_0: 3d68ad45
/model.23/cv4.1/cv4.1.2/Conv_output_0: 3c89fbf4
/model.22/m.0/m/m.0/Add_output_0: 3d64078b
/model.23/Unsqueeze_10_output_0: 3e9f4871
/model.23/cv3.1/cv3.1.1/cv3.1.1.0/act/Mul_output_0: 3d02653b
/model.23/Add_11_output_0: 3fa07e05
/model.22/m.0/m/m.0/cv2/act/Mul_output_0: 3cc2f8ee
/model.8/Split_output_0: 3d67d2d6
ONNXTRT_Broadcast_497_output: 3c810a14
/model.23/Reshape_18_output_0: 3e1d4449
/model.23/Range_5_output_0: 3e193bf8
/model.8/Split_output_1: 3d680e5b
/model.8/m.0/cv1/conv/Conv_output_0: 3d890e60
/model.8/m.0/cv2/conv/Conv_output_0: 3dc1e316
/model.8/m.0/cv1/act/Sigmoid_output_0: 3c02093a
/model.8/m.0/cv2/act/Sigmoid_output_0: 3c0109fc
/model.8/m.0/cv1/act/Mul_output_0: 3d0164ad
/model.8/m.0/cv2/act/Mul_output_0: 3d40546d
/model.8/m.0/m/m.0/cv1/conv/Conv_output_0: 3d7601c5
/model.8/m.0/m/m.0/cv1/act/Sigmoid_output_0: 3c00e376
/model.8/m.0/m/m.0/cv1/act/Mul_output_0: 3cc1c32d
/model.8/m.0/m/m.0/cv2/conv/Conv_output_0: 3d69a5d5
/model.8/m.0/m/m.0/cv2/act/Sigmoid_output_0: 3c00e338
/model.8/m.0/m/m.0/cv2/act/Mul_output_0: 3cbf4e07
/model.8/m.0/m/m.0/Add_output_0: 3d658fb7
/model.8/m.0/m/m.1/cv1/conv/Conv_output_0: 3d5b1e80
/model.8/m.0/m/m.1/cv1/act/Sigmoid_output_0: 3c003ccb
/model.8/m.0/m/m.1/cv1/act/Mul_output_0: 3cb1b8bf
/model.8/m.0/m/m.1/cv2/conv/Conv_output_0: 3d81acee
/model.8/m.0/m/m.1/cv2/act/Sigmoid_output_0: 3c00f570
/model.8/m.0/m/m.1/cv2/act/Mul_output_0: 3d423066
/model.8/m.0/m/m.1/Add_output_0: 3dab28f7
/model.8/m.0/Concat_output_0: 3d8f1137
/model.8/m.0/cv3/conv/Conv_output_0: 3d6ce5ff
/model.8/m.0/cv3/act/Sigmoid_output_0: 3c00f4b9
/model.8/m.0/cv3/act/Mul_output_0: 3d003999
/model.8/Concat_output_0: 3d68ad45
/model.8/cv2/conv/Conv_output_0: 3da8ac64
/model.8/cv2/act/Sigmoid_output_0: 3c00f45e
/model.8/cv2/act/Mul_output_0: 3d24dbaf
/model.9/cv1/conv/Conv_output_0: 3d6393f1
/model.9/cv1/act/Sigmoid_output_0: 3c00b522
/model.9/cv1/act/Mul_output_0: 3d4216f4
/model.9/m/MaxPool_output_0: 3d4216f4
/model.9/m_1/MaxPool_output_0: 3d4216f4
/model.9/m_2/MaxPool_output_0: 3d4216f4
/model.9/Concat_output_0: 3d91514c
/model.9/cv2/conv/Conv_output_0: 3d51faab
/model.9/cv2/act/Sigmoid_output_0: 3bfd25e5
/model.9/cv2/act/Mul_output_0: 3ca52e80
/model.10/cv1/conv/Conv_output_0: 3dd5c7df
/model.10/cv1/act/Sigmoid_output_0: 3c011214
/model.10/cv1/act/Mul_output_0: 3d41748d
/model.23/Range_3_output_0: 3e9d4449
/model.23/Unsqueeze_15_output_0: 3f204a85
/model.23/dfl/Reshape_output_0: 3de940d6
/model.23/Concat_28_output_0: 3f207e05
/model.23/cv2.2/cv2.2.1/act/Sigmoid_output_0: 3c010a14
/model.23/dfl/Transpose_output_0: 3de940d6
/model.10/Split_output_0: 3d67491e
/model.23/Concat_3_output_0: 3c9dcebb
/model.23/Expand_2_output_0: 3e9f4871
ONNXTRT_ShapeShuffle_355_output: 3c010a14
/model.10/Split_output_1: 3d127e7b
/model.23/Add_10_output_0: 3f2188d0
/model.23/cv3.2/cv3.2.0/cv3.2.0.1/act/Mul_output_0: 3cd128a8
/model.10/m/m.0/attn/qkv/conv/Conv_output_0: 3d9754e0
/model.23/Unsqueeze_9_output_0: 3e9f4871
/model.22/m.0/m/m.0/cv2/act/Sigmoid_output_0: 3c022e2c
/model.23/Concat_19_output_0: 3e9f4871
/model.23/Squeeze_1_output_0_output: 3e010a14
/model.23/ConstantOfShape_1_output_0: 0
/model.23/Reshape_20_output_0: 3e1d4449
/model.23/Concat_5_output_0: 3e2afb37
/model.23/Reshape_4_output_0: 3e2afb37
/model.22/m.0/m/m.0/cv2/conv/Conv_output_0: 3d6542cc
ONNXTRT_ShapeShuffle_268_output: 0
/model.22/m.0/m/m.0/cv1/act/Mul_output_0: 3c9975d1
/model.22/m.0/m/m.1/cv1/act/Sigmoid_output_0: 3c00cbd2
/model.23/cv2.2/cv2.2.1/act/Mul_output_0: 3e11a87c
/model.23/cv4.2/cv4.2.0/conv/Conv_output_0: 3d1f3053
/model.23/Split_1_output_0: 3de940d6
ONNXTRT_Broadcast_358_output: 3b810a14
/model.10/m/m.0/attn/Reshape_output_0: 3d9754e0
/model.23/Slice_output_0: 3de1fb52
/model.22/m.0/m/m.0/cv1/act/Sigmoid_output_0: 3c0202dc
/model.22/m.0/m/m.1/cv2/act/Sigmoid_output_0: 3c017797
/model.22/m.0/cv2/act/Mul_output_0: 3c99d6ea
/model.23/cv2.2/cv2.2.0/conv/Conv_output_0: 3d89b0b7
/model.22/m.0/cv1/act/Sigmoid_output_0: 3c05c142
/model.10/m/m.0/attn/Split_output_0: 3d5a54b2
/model.23/Reshape_5_output_0: 3e46ecb5
/model.22/m.0/cv1/act/Mul_output_0: 3c7f496e
/model.22/m.0/cv3/act/Sigmoid_output_0: 3c0280eb
/model.10/m/m.0/attn/Split_output_1: 3d7e60f0
/model.23/cv3.2/cv3.2.1/cv3.2.1.1/act/Mul_output_0: 3dbe9f75
/model.22/m.0/cv2/act/Sigmoid_output_0: 3c0104e4
/model.22/m.0/cv2/conv/Conv_output_0: 3d0118b9
/model.10/m/m.0/attn/Split_output_2: 3d7efd13
/model.10/m/m.0/attn/Transpose_output_0: 3d5a54b2
/model.10/m/m.0/attn/Reshape_2_output_0: 3d7efd13
/model.10/m/m.0/attn/MatMul_output_0: 3f3aea49
/model.10/m/m.0/attn/pe/conv/Conv_output_0: 3d62bcca
/model.10/m/m.0/attn/Constant_6_output_0_output: 3ab67d3d
ONNXTRT_Broadcast_output: 3ab67d3d
/model.10/m/m.0/attn/Mul_1_output_0: 3e042b43
/model.10/m/m.0/attn/Softmax_output: 3a0f2d08
/model.10/m/m.0/attn/Softmax_output_0: 3a0f2d08
/model.23/Reshape_14_output_0: 3e9f4871
/model.22/m.0/cv1/conv/Conv_output_0: 3d03c17c
/model.10/m/m.0/attn/Transpose_1_output_0: 3a0f2d08
/model.10/m/m.0/attn/MatMul_1_output_0: 3d234e8f
/model.10/m/m.0/attn/Reshape_1_output_0: 3d234e8f
/model.10/m/m.0/attn/Add_output_0: 3d086e16
/model.10/m/m.0/attn/proj/conv/Conv_output_0: 3d160ed0
/model.10/m/m.0/Add_output_0: 3dbc1c9a
/model.10/m/m.0/ffn/ffn.0/conv/Conv_output_0: 3d5a7a9d
/model.10/m/m.0/ffn/ffn.0/act/Sigmoid_output_0: 3c03dd74
/model.10/m/m.0/ffn/ffn.0/act/Mul_output_0: 3ce9391c
/model.10/m/m.0/ffn/ffn.1/conv/Conv_output_0: 3d24b475
/model.10/m/m.0/Add_1_output_0: 3dbfdc7c
/model.10/Concat_output_0: 3d92e2e5
/model.10/cv2/conv/Conv_output_0: 3d70fed5
/model.10/cv2/act/Sigmoid_output_0: 3bffe089
/model.10/cv2/act/Mul_output_0: 3c51366d
/model.11/Resize_output_0: 3c51366d
/model.12/Concat_output_0: 3c7f88f4
/model.13/cv1/conv/Conv_output_0: 3d810cc5
/model.13/cv1/act/Sigmoid_output_0: 3c007b0f
/model.13/cv1/act/Mul_output_0: 3cc1ae96
/model.23/cv3.1/cv3.1.2/Conv_output_0: 3e616e54
ONNXTRT_Broadcast_504_output: 3e810a14
(Unnamed Layer* 548) [Constant]_output: 0
/model.23/dfl/Softmax_output_0: 3bd6a3e4
/model.23/Concat_6_output_0: 3e46ecb5
/model.22/cv2/act/Mul_output_0: 3ccff646
/model.13/Split_output_0: 3cc16b2c
/model.23/Transpose_output_0: 3f204a85
/model.23/cv3.1/cv3.1.1/cv3.1.1.1/act/Sigmoid_output_0: 3c021407
/model.22/Split_output_1: 3c43e100
/model.13/Split_output_1: 3c905b2b
/model.13/m.0/cv1/conv/Conv_output_0: 3d76ea27
/model.13/m.0/cv1/act/Sigmoid_output_0: 3c0073e6
/model.13/m.0/cv1/act/Mul_output_0: 3cd2bfc7
/model.13/m.0/cv2/conv/Conv_output_0: 3d45ee0f
/model.13/m.0/cv2/act/Sigmoid_output_0: 3c005ed8
/model.13/m.0/cv2/act/Mul_output_0: 3cd1a472
/model.13/m.0/Add_output_0: 3d0f54a5
/model.13/Concat_output_0: 3cd25e76
/model.13/cv2/conv/Conv_output_0: 3d3cdc9a
/model.13/cv2/act/Sigmoid_output_0: 3bf61e88
/model.13/cv2/act/Mul_output_0: 3c30dd76
/model.14/Resize_output_0: 3c30dd76
/model.15/Concat_output_0: 3c74b185
/model.16/cv1/conv/Conv_output_0: 3d367690
/model.16/cv1/act/Sigmoid_output_0: 3bfb5f8c
/model.16/cv1/act/Mul_output_0: 3cd24781
ONNXTRT_Broadcast_370_output: 3e810a14
/model.23/cv4.1/cv4.1.1/conv/Conv_output_0: 3d50df4e
/model.23/Mul_5_output_0: 40a0dfb9
/model.22/m.0/Concat_output_0: 3d66e6f9
/model.23/cv2.2/cv2.2.2/Conv_output_0: 3daf9648
/model.22/cv1/act/Sigmoid_output_0: 3c041d46
/model.16/Split_output_0: 3cd24781
/model.23/cv4.2/cv4.2.1/conv/Conv_output_0: 3d37a845
/model.23/cv4.1/cv4.1.1/act/Sigmoid_output_0: 3c03b089
/model.21/Concat_output_0: 3c91bc41
/model.16/Split_output_1: 3c19b6d0
/model.16/m.0/cv1/conv/Conv_output_0: 3d362fca
/model.16/m.0/cv1/act/Sigmoid_output_0: 3c00c2ee
/model.16/m.0/cv1/act/Mul_output_0: 3cd29a91
/model.16/m.0/cv2/conv/Conv_output_0: 3d1da732
/model.16/m.0/cv2/act/Sigmoid_output_0: 3c02c946
/model.16/m.0/cv2/act/Mul_output_0: 3c87b1d7
/model.16/m.0/Add_output_0: 3cff7ed8
/model.16/Concat_output_0: 3cd32960
/model.16/cv2/conv/Conv_output_0: 3d3eaf46
/model.16/cv2/act/Sigmoid_output_0: 3bf7bb9c
/model.16/cv2/act/Mul_output_0: 3c722449
/model.17/conv/Conv_output_0: 3d3882b6
/model.23/proto/cv1/conv/Conv_output_0: 3d1791bb
/model.23/cv4.0/cv4.0.0/conv/Conv_output_0: 3d0e3db3
/model.23/cv2.0/cv2.0.0/conv/Conv_output_0: 3d4d7fa4
/model.23/cv3.0/cv3.0.0/cv3.0.0.0/conv/Conv_output_0: 3d14ff35
/model.17/act/Sigmoid_output_0: 3c0059d4
/model.23/proto/cv1/act/Sigmoid_output_0: 3bfce1d6
/model.23/cv4.0/cv4.0.0/act/Sigmoid_output_0: 3bff3801
/model.23/cv2.0/cv2.0.0/act/Sigmoid_output_0: 3bfde48d
/model.23/cv3.0/cv3.0.0/cv3.0.0.0/act/Sigmoid_output_0: 3bfe0d47
/model.17/act/Mul_output_0: 3c900c2a
/model.23/proto/cv1/act/Mul_output_0: 3c74f216
/model.23/cv4.0/cv4.0.0/act/Mul_output_0: 3cb1d30d
/model.23/cv2.0/cv2.0.0/act/Mul_output_0: 3c87bb96
/model.23/cv3.0/cv3.0.0/cv3.0.0.0/act/Mul_output_0: 3d100321
/model.18/Concat_output_0: 3c72e40d
/model.23/proto/upsample/ConvTranspose_output_0: 3bba7855
/model.23/cv4.0/cv4.0.1/conv/Conv_output_0: 3d412b37
/model.23/cv2.0/cv2.0.1/conv/Conv_output_0: 3e30bea8
/model.23/cv3.0/cv3.0.0/cv3.0.0.1/conv/Conv_output_0: 3d250d3f
/model.19/cv1/conv/Conv_output_0: 3d502084
/model.23/proto/cv2/conv/Conv_output_0: 3d3c51a4
/model.23/cv4.0/cv4.0.1/act/Sigmoid_output_0: 3bff579b
/model.23/cv2.0/cv2.0.1/act/Sigmoid_output_0: 3c010a14
/model.23/cv3.0/cv3.0.0/cv3.0.0.1/act/Sigmoid_output_0: 3bfda614
/model.19/cv1/act/Sigmoid_output_0: 3c07938d
/model.23/proto/cv2/act/Sigmoid_output_0: 3bf9a0f7
/model.23/cv4.0/cv4.0.1/act/Mul_output_0: 3d00aec4
/model.23/cv2.0/cv2.0.1/act/Mul_output_0: 3dc03acc
/model.23/cv3.0/cv3.0.0/cv3.0.0.1/act/Mul_output_0: 3cb021ce
/model.19/cv1/act/Mul_output_0: 3c90dc26
/model.23/proto/cv2/act/Mul_output_0: 3bd6bb66
/model.23/cv4.0/cv4.0.2/Conv_output_0: 3c75ee63
/model.23/cv2.0/cv2.0.2/Conv_output_0: 3de940d6
/model.23/cv3.0/cv3.0.1/cv3.0.1.0/conv/Conv_output_0: 3d7da444
ONNXTRT_Broadcast_360_output: 3b810a14
/model.23/cv3.1/cv3.1.1/cv3.1.1.1/conv/Conv_output_0: 3e09a4df
/model.23/Add_7_output_0: 3e1d4449
/model.23/Reshape_15_output_0: 3e9f4871
ONNXTRT_ShapeShuffle_345_output: 3c010a14
/model.23/cv2.2/cv2.2.1/conv/Conv_output_0: 3e3d1a94
/model.19/Split_output_0: 3cc0f449
/model.22/m.0/m/m.0/cv1/conv/Conv_output_0: 3d8cd65a
(Unnamed Layer* 691) [Constant]_output: 0
/model.23/Expand_3_output_0: 3e9f4871
/model.19/Split_output_1: 3c3ff06d
/model.23/proto/cv3/conv/Conv_output_0: 3d4b189a
/model.23/cv3.0/cv3.0.1/cv3.0.1.0/act/Sigmoid_output_0: 3c00f22c
/model.19/m.0/cv1/conv/Conv_output_0: 3d349458
/model.23/proto/cv3/act/Sigmoid_output_0: 3bffc6ad
/model.23/cv3.0/cv3.0.1/cv3.0.1.0/act/Mul_output_0: 3d25b2d5
/model.19/m.0/cv1/act/Sigmoid_output_0: 3c0c21ce
output1: 3d109ba3
/model.23/cv3.0/cv3.0.1/cv3.0.1.1/conv/Conv_output_0: 3deb17a3
/model.19/m.0/cv1/act/Mul_output_0: 3c801f68
/model.23/cv3.1/cv3.1.1/cv3.1.1.0/conv/Conv_output_0: 3d3cddf0
/model.23/cv2.1/cv2.1.2/Conv_output_0: 3dcaecc2
/model.23/cv3.0/cv3.0.1/cv3.0.1.1/act/Sigmoid_output_0: 3c010a14
/model.19/m.0/cv2/conv/Conv_output_0: 3d65ef48
/model.22/cv1/act/Mul_output_0: 3c8fd142
/model.23/cv3.0/cv3.0.1/cv3.0.1.1/act/Mul_output_0: 3d96ac65
/model.19/m.0/cv2/act/Sigmoid_output_0: 3c039dbd
/model.23/Sigmoid_output_0: 3aec4290
/model.23/cv3.0/cv3.0.2/Conv_output_0: 3e41e5cb
/model.19/m.0/cv2/act/Mul_output_0: 3d100154
/model.23/cv3.1/cv3.1.0/cv3.1.0.1/act/Sigmoid_output_0: 3c0088d2
/model.23/cv3.2/cv3.2.1/cv3.2.1.1/act/Sigmoid_output_0: 3c010a14
/model.23/cv2.2/cv2.2.0/act/Mul_output_0: 3d276145
/model.23/Concat_4_output_0: 3e39f9ec
/model.19/m.0/Add_output_0: 3d663337
/model.23/Reshape_output_0: 3c75ee63
/model.23/cv2.1/cv2.1.1/act/Mul_output_0: 3dc6c147
/model.22/m.0/cv3/act/Mul_output_0: 3d1244df
/model.19/Concat_output_0: 3cc0f8c3
/model.23/cv3.2/cv3.2.0/cv3.2.0.0/act/Sigmoid_output_0: 3c03d2ff
/model.23/cv3.1/cv3.1.1/cv3.1.1.1/act/Mul_output_0: 3d900edc
/model.23/Squeeze_2_output_0_output: 3e810a14
/model.19/cv2/conv/Conv_output_0: 3d622672
/model.23/cv3.2/cv3.2.1/cv3.2.1.0/act/Mul_output_0: 3cea6768
/model.23/cv3.2/cv3.2.0/cv3.2.0.1/act/Sigmoid_output_0: 3c00ae3a
/model.23/cv2.1/cv2.1.1/act/Sigmoid_output_0: 3c010a14
/model.23/cv3.1/cv3.1.0/cv3.1.0.1/act/Mul_output_0: 3cc00a53
/model.19/cv2/act/Sigmoid_output_0: 3c00e79e
/model.23/Add_5_output_0: 3e010a14
/model.23/Range_4_output_0: 3e193bf8
/model.23/Constant_21_output_0_output: 0
/model.23/Constant_22_output_0_output: 3c010a14
/model.23/dfl/Softmax_output: 3bd6a3e4
/model.22/m.0/m/m.1/cv2/conv/Conv_output_0: 3db17eaf
/model.23/cv2.2/cv2.2.0/act/Sigmoid_output_0: 3c0230fc
/model.23/dfl/Reshape_1_output_0: 3deb875d
/model.23/Unsqueeze_6_output_0: 3f204a85
/model.23/Concat_24_output_0: 3e1d4449
/model.23/Reshape_13_output_0: 3e9f4871
/model.23/Range_output_0: 3f1f4871
ONNXTRT_ShapeShuffle_154_output: 3c010a14
/model.22/cv1/conv/Conv_output_0: 3d58e786
/model.23/Slice_1_output_0: 3deb2ee4
/model.23/cv4.2/cv4.2.2/Conv_output_0: 3c9e5e70
/model.23/cv4.2/cv4.2.0/act/Sigmoid_output_0: 3bfd2536
/model.23/Unsqueeze_7_output_0: 3f204a85
/model.23/ConstantOfShape_2_output_0: 0
/model.23/Div_1_output_0: 3f207e05
/model.23/Range_1_output_0: 3f1f4871
ONNXTRT_ShapeShuffle_164_output: 3c010a14
/model.23/dfl/conv/Conv_output_0: 3deb875d
/model.19/cv2/act/Mul_output_0: 3c9abf2a
/model.23/Reshape_3_output_0: 3e39f9ec
/model.23/Constant_23_output_0_output: 3b810a14
ONNXTRT_Broadcast_168_output: 3b810a14
/model.23/Add_output_0: 3f204a85
ONNXTRT_Broadcast_170_output: 3b810a14
/model.23/Add_1_output_0: 3f204a85
/model.23/Sub_1_output_0: 3e67222a
/model.23/Concat_27_output_0: 3e810a14
/model.20/conv/Conv_output_0: 3d3cb5a2
/model.23/cv4.1/cv4.1.0/conv/Conv_output_0: 3ce1d0c1
/model.23/cv2.1/cv2.1.0/conv/Conv_output_0: 3d893503
/model.23/cv3.1/cv3.1.0/cv3.1.0.0/conv/Conv_output_0: 3d8884d7
(Unnamed Layer* 407) [Constant]_output: 0
ONNXTRT_ShapeShuffle_173_output: 0
/model.23/ConstantOfShape_output_0: 0
/model.23/cv4.1/cv4.1.1/act/Mul_output_0: 3cff53d1
/model.22/m.0/m/m.1/cv1/act/Mul_output_0: 3c910a34
/model.23/Transpose_1_output_0: 3e810a14
/model.23/Concat_10_output_0: 3e37b2e8
/model.23/Reshape_8_output_0: 3f204a85
/model.23/Reshape_9_output_0: 3f204a85
/model.20/act/Sigmoid_output_0: 3c015266
/model.23/cv4.1/cv4.1.0/act/Sigmoid_output_0: 3befd05c
/model.23/cv2.1/cv2.1.0/act/Sigmoid_output_0: 3c005aa1
/model.23/cv3.1/cv3.1.0/cv3.1.0.0/act/Sigmoid_output_0: 3c010a0a
/model.23/Squeeze_output_0_output: 3d810a14
ONNXTRT_Broadcast_178_output: 3d810a14
/model.23/Add_2_output_0: 3d810a14
output0: 3f15a671
/model.20/act/Mul_output_0: 3cb33e90
/model.23/cv4.1/cv4.1.0/act/Mul_output_0: 3c8726e0
/model.23/cv2.1/cv2.1.0/act/Mul_output_0: 3cffb7dc
/model.23/cv3.1/cv3.1.0/cv3.1.0.0/act/Mul_output_0: 3d64845c
/model.23/Add_4_output_0: 3e9f4871
/model.22/cv2/act/Sigmoid_output_0: 3c019933
/model.23/cv3.2/cv3.2.1/cv3.2.1.1/conv/Conv_output_0: 3de19b18
ONNXTRT_Broadcast_273_output: 3e010a14
/model.23/Unsqueeze_12_output_0: 3e1d4449
/model.23/cv4.2/cv4.2.1/act/Sigmoid_output_0: 3c009b29
/model.22/Split_output_0: 3cd63c14
/model.23/Expand_5_output_0: 3e1d4449
/model.23/Constant_74_output_0_output: 3c810a14
ONNXTRT_ShapeShuffle_363_output: 0
/model.23/Expand_output_0: 3f204a85
/model.23/cv4.2/cv4.2.1/act/Mul_output_0: 3cffff6d
/model.23/Sub_output_0: 3f1f41d5
/model.23/Concat_26_output_0: 3f204a85
/model.22/Concat_output_0: 3ce8da5d
/model.23/Unsqueeze_13_output_0: 3e1d4449
/model.23/cv3.1/cv3.1.0/cv3.1.0.1/conv/Conv_output_0: 3d4293b1
/model.23/Reshape_1_output_0: 3c89fbf4
/model.22/m.0/m/m.1/cv2/act/Mul_output_0: 3d42bcf9
/model.23/Expand_4_output_0: 3e1d4449
